1111110011011010111110011100111111111101101110111111101000001000000000010101000011111100110001111111111111100110111110111101010111111010001000001111110011001100000000011010100011111100100101010000000001101011111111011010101011111010110000011111111111000101
0000000000110011111111010111001100000000011100011111111011010000000000110001010111111011001000100000001110111100111110110101110011111100100100111111111001110011000001110111110000000100110011000000011000101000111111111010110011111100011011011111110010110101
1111100110110111111110101011000000000011100011011111101110000111000001100000111000000000100110110000001110100110111111011110011000000100110111110000000000100100000000010001010011111100001000110000100001001011000000011111001011111100001011101111110101100001
1111111100001111111111001011001000000000101100101111101111000101111111100111011111111101010101011111111010001100000000001111111111111100100001010000000101000110000001000001110100000000110001101111111010110101000001000000000111111010100101100000000000110011
1111110110011000111110111011001000000000011010011111111001011110000000100000111000000000101101001111101101001011000000111001011011111101010010111111111001011110000000101101011000000100101011001111101101010110000000011011010100000010000000010000000000010000
0000001101111000000000000000101100000001011110100000000010101011000000000101101011111110101110001111111010101011111110111001000011111100010000101111111001010101111111011001110111111011101000001111111101100011000000101110100011111111010000010000011110111110
1111110011111100111111000100000000000011111011000000000011110001000000010000101100000010111010010000000000000110111110100000111011111101011000010000000101010101111111111111110111111111011000001111111001010101111111010111001000000001101010110000011001100100
0000001000011000000000010010110011111110011111101111111111111101111111000011000000000010010110111111111111101001111110001001010011111111100001101111111111011111111111110000101100000010110001101111101111000010111101110100110100000000110110100000000011000101
0000000111011101111111111001000000000010101011110000000001011000111110110111110111111100011001001111110110000010000000001001001000000000111111000000010100011100111111010101100100000010110111111111101000101101111101101010001111111110010011000000000001010111
0000001000100001000000101010000000000010011001111111110110100010111110111010011011111111011101100000011101101100111111100110011111111010100001001111101100100010000000111101110000000010110100110000000110110000111101111100000011111111100001101111111000101111
0000000000111110111111001100000100000011000101100000000101011011000001000001111111111111101100101111111001010111000000111101111100000001001100111111111001001110111111000010100011111111101001111111110101110001000000111001110111111111010011000000001101100000
1111111110101010000001001001101000000001011000000000000100010000000001011000101011111101110110001111110001100101111111001100111111111101000010100000001101101000000000100100110011111100100110000000001010000010000001001101100100000000111111010000011100110001
0000010011010111000000001000111111111100111110110000011001010001111111100000110011111101000111100000010000001101111111111110010111111101001010110000010001010101111111110100111011111111001101010000000111001101000000111000011000000010111110100000010011110000
0000010101001000000001011010010111111110101101010000000001101011111110101010100000000001111001100000010110011101111111110111110011111010001001101111111010111101000000001101101000000000001000110000001110110001000000000100111111111110110111100000100000011000
0000000011111101000010001101101000000011101100010000011010000011000000001111001100000000110011110000010110001011111110111100000111111011101100011111101111101001000001110110100000000000110010100000001001100010111110101000100000000010110111001111110010101011
1111111110110000000000010011110011111000111101001111111000101010000000111100000011111011011001100000010111111110111110110111100111111110101111001111110111001011111111011111111000000000010000010000000001110110000001011110000111111110110010000000000000101010
0000000010010110111110101101011011111110111011111111111110101010000001010100000011111100110000000000010100110100111111010011101111111101010000101111110010010001000001000111101111111101110001001111110110111010000000011101111000000001110001100000000110111101
0000000011000110000000100011111011111101010011000000011011011101000000011010101100000101111110110000001101100100111111000000011100000011001011111111110100101111000001100000101111111111111111000000001010010110000001100001101111111111100101110000001010101101
0000000100001010000001000100001000000111010101100000000001110000111111100111101111111111100100000000010001011010000000101100001000000111001001100000001110010101000001011001010011111111101010011111111110000001000001101101000111111101100100110000000000111111
0000000111101011000000000010000000000011111111000000001010111011111111100001010011111111010100011111111000000110000000011100001111111100101101100000011011011000000001000101100011111110110001111111110000101100000001101110101111111101100111110000001001010111
1111111010111101111111100010101011111110001000101111101010011101111111011101100111111110110111110000010000000000000000000110110000000000110110100000001100001100000000000001110011111011100100100000001000111010000000011000011011111110110111111111100000010010
1111111001100111000000111001010011111110011011101111110001010101111111110100100100000010001011100000010000100100111111111010000100000011101011110000000001111011000000100001001000000011110010011111111101100011000000011000111011111101000010101111101111110011
0000010000111010000001000000011100000000101011000000001110000100111110101100010000000001110000011111110011001001000001101100111100000010001011010000000011100011000000100011110111111100011000100000000110001000000000001100110000000000111010011111111010011100
0000001100011001111111010011111011111110000111010000010001111000000000000011100011111010101001101111101101011111000000010111101000000100000111110000001100100010000000011001000011111110001111101111111000110011000001010001000000000110001111101111111110011001
0000001111010100111110100011110100000000000111100000010010000100111111010110111111111111000110101111101110111010000000111110100100000010011110110000010000011110000000000000010011111110110010100000001001111011000000111001100011111001010100100000000001000110
1111110011110001111111010101000111111011100010010000001001110110111110100010100011111111010011110000010101100011000000100011110011111110011111111111111011101101000001111010011100000010111011100000010011010010111111001110101011111000110110000000000001101110
1111110011000011000000010001110111111111001111110000000101101100000000110010100000000000010110100000001100101011000000011111101111111101001101010000000011001111111111111110010000000001111100000000010010000101111111110001111011111100101111110000001111011011
1111111011100110000000111001100000000111011100111111111011110111000001010001011111111010101101000000101100101011000000100011100011111010000100011111111110001111000001101010000100000111001011100000010101110101000001010101100000000001111110001111111111110001
0000001110111111000000010001111000000010101001101111110111101100000001100100011111111010010111011111110101010001000000001100001100000000111001011111101001110100000010000111000000000001101110001111101110010111000001001100000100000000001101111111110100101001
1111101011010111111111001111011111111100010010101111011101101001000000100011011111111110111001001111100110110110111111110111011111111001010010100000000010100101000000111100111011111110111001010000000000000111000000101100100100000010011011010000001110111001
1111101110101011000000000101010100000010100100001111110101000101111110000001100000000011010001110000001100000101000001100011011011111100101101000000001001000110000000110110100000000001111110001111101110110011000000011000001011111100110110001111101111110000
0000010010010000111111010010101011111111011111110000000011100000111111010101111011111100110100100000010101001011000001100110011011111111011001000000001001101010000000111111001100000000101110001111111101011001111111110110100111111010101010101111111110001001
0000001110110011111111010001111100000100111011000000010101011110000000111011100111111101010010110000010001011011000000111100110011111111110110001111110101110100000010001111101111111111001011100000000101011101111111001001110011111000010011101111101100001001
1111101100101101111101010001011111111011011000101111011110001101000000110100011111111000101000110000011000101100000001001010100011111110000111100000000001101001000000011111000100000110100000100000001010011110000001000111101011111011110011101111100111000111
1111101010000100000000101011110011110110101111001111011101000011111111001100111000000001011111110000100010101110111110111010001100000001011110111111101111110110000000100110010111111111011110110000010000111000000010010000110011111001101011011111110100111011
1111101101000010111111100100110000000011110000111111110100100101000000101010111000000011101011100000000010000111111111010101100011110111111110011111110011000110111111111011100111111010010100001111110011001001000000010001010100000001000101100000001001111111
1111111100100010111110001101000100000101111011001111110101110101111111001110110111111011010011010000010100000101000000011010011011111101000101111111110000001001111111000010110011111000111001001111110011100100000000011110000000000010101001100000000101011001
0000011100100101111110110101000011111101011100101111110100100101111110001011001011110110111000100000101010110101111111101000101111111000011110101111111000110010000000111101001011111101111101010000010011000001111111100001110011111001111101100000000010101111
1111110100111000000000011001101111111011011101111111100011010111000000001011110000000000000001101111111111100100111110100100111100000001011011111111111111110011000001001101000000000000001101000000010010110100111110111010001111111001010110100000000001111101
0000001101010100000010000111011100000010111101000000000101110111111110011001110000000001100111110000011110111011111100110011110011111101000110011111110111100111000000001101110100000001010000000000001000101111000000001010100111111111000001101111111100000000
1111111001100000111110101101101000000000111010000000010010010110000000011111010111111010100110100000011110111001111110001101110000000001110001011111101100100000000000000110100011111010000110001111110000001010000000110010000011111111011100000000001101000101
0000000100100111111110001101010011111100001101110000000111110000000000010010010111110110101101110000100000000000111111001100000111111011010010001111111111010100111111010111000111111011011100001111110001100010000001110011000011111010000110100000001101001001
1111111000001010111111110011111100000000000100011111101111001110111111011100011011111110100110000000011101000100111111111101100100000001110010001111101101100110111111111110000111111101000010110000010000000111000001110010110011110110001000110000001000101011
1111111000100101000000111001011011111111011001011111101111100101111110010000011000000101011011110000000110100101000000011110001011111110000010110000010001100110000000000000110111111100001000111111111001011010000001000100111100000000010110000000001101101011
0000001011111101000000101111101000000001000000010000010001000011000000010010100011111111101000001111111101010100111111100111010100000000100111101111111001011100000010000001010000000010000000111111110100010011000000110010111100000011110100001111111101000111
0000001001100011111101110110000011111001001100011111111101111101000000110111010011111110000110110000001011000000111111110011011100000000010101000000001111110011111110101111111111111110111100111111101110010000000000110110110011110111110010101111110011011101
1111101100110100111111000100101011111000110011100000001110100101111110111111100111111100101100000000001011100010111111100011111000000010011110101111111101010001111111111110111111111110101001000000000101111010000000000010101011111000110111001111111000000111
1111101001110111111110111110010000000000111010101111110000001111000000111001100011111011111011111111111011100100000000000101111000000011000100110000000111001101000000110100010100000000000111001111111000101111000001011011101011111101010100011111111111001101
1111111101010011111111010000100000000011101000011111110110000011111111100001110111111100100010111111101101110110000010010101011111111101110000000000010100100000111111110001010111111110111000010000010100011110000001000101010111111110111100000000011101111100
0000000000111110111111011111100000000011100110011111111111000000111110101001010011111110001011111111110001010100000001001101111000000101110110100000010101101011000000110010110111111110001001000000000010100000111111111010100100000100100000101111111100000000
0000010111000010111111101101001100000000000000110000001001011100111111111100100111111110111100101111111111010100000001010111001000000001111110011111101000001010000000001101011100000100001001001111111111111001000000010110100000000110100111011111111101110011
0000011001001101111110111010000011111110101011110000000111001001000001110100010111111000010010111111101000111011111111101110101100000110100010111111111100000110000000010100001100000000011100001111110101001011111111010111100100000001100010000000001000100011
0000011110001001111110001100001011111101101011001111111011011110111111110010111000000100010110111111111000100011000000101111001011111011101001000000000000100000111111100011101111111111010011110000010100000001111111010011000000000000101100110000001100011110
1111111001111010111111100101100111111011000010111111110110100010111111111101110000000100100001101111111010101110111110011001100100000011101010010000000001001010111111100111111111111100011111011111111011110000111110111100111011111001111011011111110110001100
0000000011000010000001000111000011111101000000111111101010011100111111010110110000000010011001011111111110001010111111010000000111111110000111111111110010101111111111001110100100000000011111001111111101010010111111000100111011111101111100111111101111000110
0000001110111111000001010011100000000010011101110000000101011110000001010001011100000011011110010000010010101111111111010001000111111011111011101111111010110111111111111111100000000010100001101111111101000100000000001101111011111101100100000000001111101010
0000000001110110111111001101111000000000000010111111111001100011111111110110011000000000111000000000001101000101000000111011101000000010000100001111111010100111000000010011010000000110110110001111111101101000000001000000110000000011010111100000011110111100
0000001010011111111111101001000011111110111000001111111111010101000000101101001000000011111110110000000011101111000000010000111011111110111011100000000110000100111110110010001011111101010101011111110101010010000000011110100000000000100010010000000111000010
0000001101101101000001001011000111111110111000010000000110110100111110011000011111111100100111001111111111001011111110111100011111111110000000011111111111111111111111101010111100000001000100001111111100010100000000010101111000000001110000010000011010011011
1111110100101001000000001000001000000011010001101111111100011011111110100111101000000000000000001111111110111011111111101000101011111111010110000000010011000010111110111010110011111011011000001111111110010010111111010110010111111111011110111111111000011010
0000001000011001111111001001000100000010101011110000001011110001111111001101110100000000000111000000010001101011000000111001110100000001011100000000001101111011111111110101000100001010000101110000010010000000111111101010001011111111000101010000000010010111
1111111001000110000001011100111111111111101100100000000111100100000001010111111111111101111110011111110101100010000000100000101000000010101110111111110110001010000001011010111100000001001001111111111101100110000000111010100000000001010101011111101010111011
0000001000111010000000010100111111111100010001010000000010101110000001010001101111111111101110101111111001000111111110110000100111111100101110110000010100111000000000011000110111111111111010000000000100001000000000100000010100000101000100010000000011101100
0000000010100101111111000001000111111011100000110000001000110001111110111011010100000101010101001111101011000011000000110111111000000100010001100000100001011001111110011001110111111110000100000000001011001010000001000010010000001000110111000000010000111001
0000001010110001111111111100101000000001100101100000000100000111111110011110110100000000110101110000001101100101000000011110000011111110011001010000100001010010111111011011010011111110010001110000010000001011111111111111011000000011010110100000010001011101
0000000001100011000000111111101100000010000100010000000011101010000000111011101011111011111001111111101110101000111110110111011100000111010010101111111001100000000000101101111000001000111111010000001001001001111111110100010000000001010100011111100111001110
0000010000010110000000010110110111111110101010111111111011010010111111111000100011111101101111011111101110111001000000111111010000000001100010100000010011100111111110110101101100000100010100100000010010111101000000010010011111111111110100010000000000010001
1111111110100111111111100001010011111110010101001111110010111001000000011111110000000011100000101111111000111110000000100101101100000100000001110000011011001110111111101010101011111010110101010000000101000011000000001111111111111110111111001111110111101111
0000001001100100000001000010011111111111001011110000001001101100000000101111111100000000101011001111110111101111000001000001010100000000110001101111111001000000111110110110110111111100101011011111111101100100000000100101001000000000011000001111101101111011
0000010001011101111110011110010100000110111101000000010001110100111111100010011100000010010001001111110010010101000000011101011111111011111110111111111011101110111111111011110100000001010110010000001010001110000000100010000011111101010000110000010011110100
1111111110000011000001011010111000000011101011110000000001000001111111110100011111111011001101011111110001000101000000100011100100000010101111110000001100101101000001010000110100000010010100100000001000001101111111110000101111111100111110000000010101111111
0000001100000101111111101100110011111011001111110000000011110111111111100001000100000010110010100000001010010100111111111110001100000111011001010000000111000000111111100110000000000001011001101111110101001001111110111001111011111110010111110000000011000001
1111111110111101000000110000001100000010001011001111111101000011000000101010011100000101110111001111110001100101000001011011111100000001101000111111110000111110111111101000111000000101000101110000010000110100111110101001011100000001011101011111110100001111
0000010000110011111111100000010100000101011001110000001011101111000000011111001100000000101010011111111010101001000000101101111111111101101111011111100100101001111111011011100011111110111110010000000010000010000000110101111100000110111001001111111111101100
0000000111111000111111111011010100000010100101000000000010111110111110111011101000000011001100000000000000001101000000100000101100000011100111100000000011011110111111001011000011111110000111100000000011010001000000001010000000000001010010111111101101000011
0000011011010101111111101001110011111111010001011111101001100100000001010100110111111100010110001111110111100000111111110100001100000011001011001111101001000110111111000100101000000000110010111111111111101100000000011000011011111111011101011111110101110100
0000000100101100111111010110011100000000110011001111110111011000000001111010011111111111010000001111111110110101111111101101010111111010100100110000010011010101111111100011010111111100101000001111111001010100000000111011110111111001010000101111110000010100
0000000010111100111111100000001111111111111110111111101110110011000001110001110111111110010010100000000010111111000001011001111100000000000010110000010000001001000000001011001000000010101011100000011001001110111110111001100111111111110001001111110000010011
0000000000000010111111101011101111111110110100111111100111111101111111101101101000000100011011001111111011101010000000101011011111111110011100011111110001000000000000010100000111111010111111100000001011010110000000010111001111111111010011011111110011010001
0000000101010110111111110100100111111101010101111111111110100011000000010010101000000001010111001111101101001111000001000001001111111100010001011111110110011011000000001001011011111101001011000000000100000011000000110111000100000000111101111111110110111010
0000001011000100111111101010101111111110100011011111110011001111000001011011100100000000110001101111111101001000000000001010100111111011101110100000001010010111111111100111101000000101101101110000010100011000000001000011111000000011101010010000001011011010
1111110111101011111110111100100000000000100010111111100100101011000000010000101100000000100010011111110000001011111110100000111000000011101001100000001101011101111111000010110000000010011100001111111001111110000000100101010100000010100011110000001010000111
1111111110101110000000100110111111111111110100111111110010001011111111001010000000000001010011001111111110011011111110110000011000000001001011110000001110011000111110010001011100000000111111000000001110010111000000011100100011111011011011010000010111011011
1111111010111010000001011111110000000011100001001111111001001001111110111100101000000101010101000000000000100001111110111000111111111101101101000000010010000001000000010000101100000010111111100000000100001101111111001001000111111100101110100000010001101011
1111110010101001000000101110011000000111100111010000001000100000111111111001111100000001010111011111110101011111111111010101011111111111110010111111111010000100111110110101000000000010101110110000000101101000111101111110000111111101011010001111111101010010
0000001111000010111111001111100000000011001001111111111011000000000000010000110111111110101000010000010111000110111110111001100011111011010100110000000100110101111111010001010000000000100110101111111000010110000000100010110100000101011000011111111010101010
0000001101010101111111111010101111111100001010011111110000110011111111000011110000000000110001001111111000001000111111001101110011111101001011011111110010101110111111110101001111111111011000001111111011111000111111010111110111111011100010100000001001101011
1111111000000101000001100101000111111101011010000000011010011000000000000010001100000010111001000000000100111110000000100111110100000000110000000000000010110110111111110100011111111100101001010000000100010101000000110111011011111011111100011111111101011010
1111110001111101111111101100011111111010111110010000001001101111111111111001100000000101010000100000010000011101000000100001011000000010001001100000010101010101000000011010000100000010110110000000000011101100000000110100001100000010100101111111111011110000
0000010111100001000000100000000011111110101101000000001100101111111110101101101011111110010000001111110011011000111111100010011011111011010110100000000001000100111110111110000000000100111000100000000100000010111111010100010000000100000000110000001010001101
1111110111000111000000100000111111111011100000000000011001111100000000101011001111111110010010010000001110011101000000000111111100000110011000110000001100010100000000011101110000000110111111011111110000010110000000000011011100000000101000011111111111111101
1111101110001101000000111101010111111101110001010000000010001101000001001100111100000001000000110000001011111010000000010110111111111110111011100000000011000101000000001111111011111101000101101111111110110110000000001110110100000000000100101111110101101111
0000010000110010111111110111000111111100001011110000001100010111111110111001101000000001011011000000001111101101000000001111010011111101000100010000010101010010111111100001111011111111010101101111110110111100000001001011100100000100010110100000000111001111
0000001101011010000000111000101100000110101110010000000000110100111111011010011100000000011001010000001011100111000000110001111111111110010111101111111011110111000001000101101000000100011011100000010011010010000000111011010100000011101111001111111101111111
0000001101111000111111110011101100000001011110110000000100010010000000111000100000000011010110010000000011010011111111001001001100000100011011010000000000011001000000101100000100000100010001001111101101100001000000000010111111111011011110000000010010011001
1111111001000000000000101100000111111100000111110000010010111001111111100100010011111111111010011111111001100010111111110011000000000001111101110000010000001100000000110000111100000010010011110000001001011110000000000001011100000010111100111111101010111001
1111111011011101000000101110011000000000101110101111111111111010000000000100111011111110100011110000000011010001111111000010111100000111000010001111100101001001111110111010001100000000011011010000001101010101111110110001100000000000110000111111100110000100
0000001101010101000000011111111011111110110000010000010011011001111110111111010000000000101010001111111100011010000000011010111000000011010001001111110111001100000001001010001011111111100011101111111101010001000000010100001100000100000101111111110111101010
0000010000101010111111011111000000000001010001010000010011101111000000111111100100000001000000011111110101110001000001011101100111111111001010100000000110100100000000001110110111111101010111111111111001011101000000010011101000000000100001101111100101100010
0000001110001010111111111011011000000011001001100000000111001001111111111110000100000010010111101111111101000110000000100100100100000011001101000000000011000001000000110110110111111111000110010000000001101001111111110000001000000000010010010000001101011010
1111101110101110000001001000110011111110111010001111110111011001111110001000111000000001100000111111100100110101000000001100101011111111110000110000000110010111111110111101011100000100000000101111110011110001111111110101011100000111001101111111111110111001
0000000101011110000001000101100000000111111100000000001011100011000001101111101011111111100000000000000101001100000000011001010000000011011100111111111001001101000000000000110111111110111010101111111000101111111111011011110011111101111000101111111001001010
0000000010100110000000001001000100000001111110111111110000000111000000001101101111111110011100011111100111001001111111101000001100000000110101000000001100000001000000000110111000000000110011100000000100110100111111000110110111111110101011110000000100011001
1111111111001100000000000101111111111011100001110000000011000010000001010111110000000101001001000000000111110110111111011001110100000100100111000000000001110001111110110111110100000100000011111111101100000101111111010011111100000010001110011111111110110111
1111111100110010000001010011001111111101100011011111111010010010111110110011111100000010000100101111111011101110111111001101110100000100110111011111101111101001111111010101010100000011011000010000000111011111111111010111100100000010111101011111111010000010
1111110111111110000000000000000011111111100011010000000010110111111110110110001100000001010010011111110100100110000000010100110100000010011001010000010000000111111111101011111100000011001000111111101100100101111110110110111111111110010010011111110001001111
1111100000110011000000101111011000000100001011100000001000011100000010000010101100000001001000011111011101011100111111001101011111111111010111011111111011010111111111010101011000000011000011000000000111111101111111001011001111111110111001111111100010110011
1111110100011100111111110110011000000001001000011111111100001000000001010110010100000000010110101111011011100010111110111001000100000001101111101111111011110101111111000001011100000001101000111111101111000010111111011101001011111100000111111111101110001010
1111110011001000111111111101101111111010010111001111110100010101000001010001010100000111010001011111101011101011111110100101101000000001010100110000000001010111111111011110011100000111100100111111101111111010111111110110000100000110011000011111111011101001
0000011001000101000001010010000000000011010000110000000011111100111110100011011000000001010100001111101011111101111101111010001100000001010010000000011010011001111111000011100000000000111111010000001001001100111111011000100111111101110100110000001001011100
1111101111011101000000010111011000000011111101001111111100111000000001010001001100000010000101111111111101111011000000100011001100000100010011101111110010001110000000101000100000000011011010011111111011001111111101101101101100000011000110101111100100011000
1111111010111000111111000101011100000110001111101111111110010101000000101011101111111011110011001111101101101110000000001010100000000100010110110000010111010000111111010110001000000011100001000000001110101110111110100011101100000001011101101111011000101011
1111110001000001000000000011010111111010100101011111111100011001000000011110111000000101101100001111111100010101111111110111111111111011010000000000010000001001111111101011100100000000011100100000010101101111111110101101001011111101001110001111010110001110
0000000011101110111111100111110000000001010111001111111011001010000000000110011011111111111000001111110101000101111110010010111000000101000100010000001101011111111111011011100011111110111111001111111010011110000000010110100100000111100000011111111000001100
0000001101010010000001011110011000000110010101100000001000010010111111100000000000000110011111011111111000110001111111001010101111111101111010001111110100000111111110101101100100000010010011001111111100110011111111001110110100000100011100111111110111111111
0000000000001111000001010010010100000010010101100000011000110101000001100111110111111001110110001111101101010011000001001001101011111111000111010000000100101001000000100111010111111011110110010000000000000100111110011011101100000110010001011111101111010110
1111101000011101000000001100000011111110011111110000001011101001000000011111110000000001101110111111110010001100000000110010001100000001110100110000000101100101000000001001011011111100110111000000001000000101111101001011111000000101011000011111110100110110
0000001000001000000000011110000000000011110110010000011010111011000001011100010000000010001100010000001100101110111110100100001100000011001110101111101010010111111111111010111011111111111111110000011010000100111101111111001100000001101101011111100000100101
0000001101101111000001100101000100001001111110000000001001110010000000101111110000000010000110100000000111110110111111011000011011111110110101011111100111010010111111001101000011111111101111110000010011000000111110000111011100001001001001101111110101000000
0000000100011010111111100000100111111110011011100000011001000010111111001000010111111110011010111111110111011111111111010101011111111101110011111111101110011100000000101011010111111011010001011111110010010111111110110110001100001000011001001111111111000011
1111100100111101000000010100001011111101001110010000100100011010000000011110011011111101000110001111101100111010111111101001110100000011001011001111110101111101000000111001010000000010110111011111110000100110000000001011111011111111100100010000000100000001
1111101111101111000000000001111000000000010110110000010010001111000000001001100100000110011100000000000100000111111111000010000111111010100111111111101000010101111111000011100000000101001011010000000000000000111111100101011000001001000100100000000100111010
1111110110101101111111011010011000000000101000010000000011011011000000101000111000000110100010101111101010110001111110111100111100000000101110101111110111001101111111000111111011111111100101000000001010010000111111100001010000001011001011001111110100110111
0000001111110100111111100011110000001010111011010000010111100001000000001110000000000001001010100000001011101000111111100110011011111110101000101111110001100101111110111010101100000010011110111111110011110001000000011011010100000110110001111111111001100111
0000000101111101111111010010100000000100111000111111111010100000000000001001111111111111000100111111111111001100000000100111111100000000010110001111101100101101111111010011101111111100100101111111111001111010111111001010100011111111001111110000010001001110
1111111110101101000000110110110011111111110110111111101000000001000000011011001000000001101000101111111100111100000000101010000011111101101100001111111101111100111111110111001000000100111111011111111101001000111111100110101000000010101001111111111101111110
1111110101101000111110100011110111111011100010001111011101101001000000011110111011111111100110110000000100011001111110100111101011111101011001101111111011101110111111100011011111111110010110001111111001001010111110101000000111111111110111110000000001101101
1111111011100101000000011011011011111101000010111111100110000011000001000110111000000101101110000000000011100110111110011111110011111110010011100000001000010010000000001001000100000000100100000000001010001011111111100001110000000000101110011111110011001001
0000000011001010111111010011001000000011100101001111111001011101000000011001000000000100010000110000000101100010000000100011110111111111010110111111110110111000000000101110100011111111101001101111111100010101111110111101001011111010100100010000001011001101
0000000110010001000001001100110000000001111110100000010101111000111111111110001111111100011100110000001101100101111111111010010100000011011010101111110001111010111111110110100000000000100010111111111000000011111110111101101011111011001101100000000010101011
0000010010011100111111111110100111111011111011001111110100110110111111000100111111111101111110001111111101101001111111001000111100000101111011110000001111111110000000000010011011111111100000101111111101101110000000110111000000001000100000110000001001000000
0000000010010001111111110011101000000100000011011111110000000100000001111101100111111111010110110000001111000101111111011011010000000100000000011111111000001010000000100001110011111111000000011111110110010101000000101101001111111110100011110000001111111000
0000010001100011000000001100011011111110101110111111110011100101000000111110111011111111111100011111111000101001111111000001101011111111001111011111111011101100000000010111011100000001111011100000000011110101111110101010111000000101000110111111110110111101
0000000010101001000001100000010011111101100011110000000001101010111111101111011011111110110001010000001000011010111110001001011111111010000101010000001101110101111111001100011100000010001010111111111001110110111111010001000000000000001011110000000001101000
1111111111011101000000100101001100000010010010010000010011001111000000100100110011111111100001000000001101100110111110011011011100000101100110010000010010110110111111000001011011111111011000111111111010111101111110001110110111111101000000001111111111000101
1111111111011001111111001111100111111100000111010000001000101111000000001000000011111110010110001111101110010010111111010010110100000010100000011111110111000110000000001001001000000000101111100000001100100100000000000001100100000001100000100000010000100110
0000000010111001111111110001100111111111111011110000010100000111000000100110011000000001001001111111111110110110000000011101101011111100001110110000000000111110000000111000111000000001111010010000010000011110000000101110100000000011011111100000010000100100
0000001011100100000000110000111111111101011011101111110111001001000000011110011011111100110110001111110001111111111111100001001100000010000110001111110100011000111111100110001011111001100101001111110100111100000000000011000100000100000011000000001111101000
1111110111111111000001000100100100000101110010000000000110011000111110101010001100000001000011000000000000011001000000101110100111111101010000100000000011101100111111101000110011111100100101110000000011100010000001101110110100000000010100110000010111110001
0000011001011000111111101100010011111111101011101111110110010010111111101001010011111011001000110000000010110010111111011000001111111111110010100000010110110100000000100110010000000010110010100000000000001001111111111111110000000000001000100000001010110011
0000000011100100000000011101111111111101010001010000000011111100111111110011100011111111001000010000010000111011111111010101001100000000011000110000001011100001111111010111001111111111110100100000001000101100000000110110101111111111111101100000000101111100
1111110101000001000001000001000000000000011010111111111100100110000000101001111000000101101100001111110100100110000000010110010100000001010001000000011001111110000000101011100100000010001111100000001101101110111111100110001111111101101001011111111111011001
0000001101010011000000101111110100000000111110010000001110100111000000001010011000000010110110110000000101010010000000111010010100000010110111110000001000010111000000111000010111111111011111010000001110101110000000000110110000000100001000010000000011010001
0000000110001101111111000101001011111111101100111111111111000010111111000100011100000101000111101111111011010101000001010010111100000101010001011111110011001000000001000000100111111110011011111111110001010101111111100110101011111111101100010000001001100000
0000010011101001111110010100101000000101101000001111111100110110111111100111101100000110011100111111110001011001000001000111101111111111010101111111111101101111000000000110111011111101100011010000000110010001000000100011111000000101000111001111111011000110
1111110101010000000000011000000011111110001111000000000011111100000000001111011111111011111000010000000111000000000000000110111000000111010010000000000110000110000000111100010011111101110110011111101101100110000000001101010111111110110001100000000011011011
1111110111001011111110101111010100000010001000100000001100001101000000001101100100000001110001101111110100101101000000111000100100000110001110010000000000001011000000110111100011111100100111010000001100111010111110011010110100000100000000001111101111010001
1111101100010010111111110011010111111100000001011111101101111001111111100000111111111111010101000000000010011101111111011010001100000010000010001111110111101001000000000100001100000000111100110000000011010001111111000111100000000110100100111111111100101100
0000010101100101000000110111111000000010001110011111111000100111000000000111011100000101100000001111111001000110000001010011000000000000111110000000000101100011111111010011010011111101000011000000001110101100111111111001111000000011100000001111101111010110
1111110001100000111111000001111100000001100010000000011101000011000000101011111000000001011011001111111101000111111111100011000100000010101110100000000010011011000000000100001011111011111011110000000001110010000000011111110011111111110000101111110111101111
