memory_initialization_radix=2;
memory_initialization_vector=
111101010000001111111101011100110000011000111110000010111100011100001000011111111111111111111101,
000001011101111100010010111011100000110001100000000100100111111000001000110100000000110000110001,
000001101111111100010100001001010000000111001101000001101010011100000100111000100000101110111100,
000001001111101000010010011111011111101010110100000011011010100011111111101000101111110010011000,
000011001100001100001110010100111111001100000111000010010110001111110011111100001111110011111001,
000001001101011100001001000001000000010111010111000001010100011000001000010100000000111010001100,
000100011010111100001111101101100000110010111111000010000100001000001110100001100000110010001100,
000100111101100100000111001101000000011000001111000001010011110000001000101100000000001101110101,
000010101111100100001000110000111111110000001111000001101100111011110100110110001111111010101010,
000001110000000100001010111001101111001000100100000010001111000111110101111111100000100000110010,
000110011100100100000111000101110000010010011110000011010000011000001001111110110000010001101101,
000101001101001000000000000111010000111101010000000011101011101100001001010010000000110010001010,
000011101101010111111101010000100000110101101100000000100101110111111100011100010000001010111100,
000010110011010011111101001001101111100011001111000001001001111011110001010010000000100000100110,
000100100000110011111000111101101111100011011111000000010100000011110011100101000000010110001011,
000001100101111100000100011001001111110010000011000010100101101000001101110110000000100111101001,
111110110100011111111011011010010000100111100111000100000011000100001111011010100000100001111000,
111101111010001011110000111011000000011101110100000010001010011111110111011011000000111001100010,
000010001000001111111000011111000000000110011100000001111001011111110100000110010001000011011100,
000011000100010011110101111000010000011000101100000010100101000111110011100000010000011111011111,
111100001010000011110000100101010000010011101111111110010111001000001110111000011111111000100010,
111110000111111111101011111100010000011110100100111111111011110111111101101010100000010101101111,
111100001011011011101100110010110000111110001100000100001110110011110010010011010000100111000101,
000001001110000011110110100010100000001010100101000001101001111011111000000110100000100110100001,
111111110110111000000001100101010000100111010001000010100111100111111101001000100000110001010110;


