memory_initialization_radix=2;
memory_initialization_vector=
000101110010111001,
000100110101010010,
000010111110011010,
000101000111010101,
000000000000000000,
000010000101110011,
000101111101001010,
000011010101010011,
000011101100010110,
000101010111000100,
000100001111010111,
000000010110001001,
000010000010010010,
001001111111011110,
000010000110001100,
001000101001001011,
000110111000001001,
000011001101000111,
000010111010010110,
000110111110110111,
000000111011000100,
000001001010101001,
000110010000101001,
000011000101010001,
000110001010010110,
000110000000110011,
000100111110111001,
000000000000000000,
000010001100110110,
001010100001001011,
000011011010110011,
001010001111100110,
001001101100100110,
000010101010000101,
000011010000110010,
001000011011010100,
000000001110101001,
000010000110101111,
000101101110100111,
000011111000101001,
000111011001100000,
000101111111100111,
000100110111101101,
000000000000000000,
000010100100000001,
001010000101000100,
000110101100000111,
001001101010000001,
000111001010011100,
000010110111111001,
000001101011100010,
000110110010101000,
000101111110100011,
000010100010101110,
000011100001110110,
000010001101101011,
000110100111001100,
000011000001010010,
000011001011000111,
000000111001110010,
000011110001000010,
001000111101100101,
001010011010110010,
000101100110001001,
000100001011110100,
000001101111110110,
000001101010111001,
000000000000000000,
000011001010110111,
000000010010010001,
000101101101011000,
000000000000000000,
000000000000000000,
000000111111011010,
000100000010111100,
000011000010101111,
000011011101100100,
000000000000000000,
000000000000000000,
000001110111101101,
001000011100000001,
000000101101000100,
000011011011001101,
000000000000000000,
000011001000110011,
000001011101011011,
000101010111011101,
000000000000000000,
000000000000000000,
000010001100001111,
000101001100010111,
000011010101111100,
000011010101101011,
000000000000000000,
000000000000000000,
000100101011101000,
001100010111010110,
000010100100001110,
000111000011111010,
000011000101110001,
000000000000000000,
000100100111011101,
000011100001100111,
000000000000000000,
000000000000000000,
000100000011010110,
000101001000001001,
000010101100111100,
000100110101000000,
000000000000000000,
000110110101000100,
000111011101011011,
000111110001011111,
000011101110011110,
000010010111001101,
000000011101010111,
001000010100100010,
000110000000110011,
000100101000010000,
000000000000000000,
000001011100111100,
000011010110101101,
000001011011000110,
000011000100011010,
000110101101111000,
000001110000001010,
001001101101110011,
000101010111101100,
000010100101100011,
000000000000000000,
000010001010000110,
000001110010100000,
000011101111110001,
000001010011011000,
000000011100100000,
000001001001001101,
000000111001001111,
000001001111100010,
000100000000000010,
000000111101011011,
000010001111000110,
000001111001000111,
000000110100000001,
000000000001100110,
000110101101110011,
000010001101110110,
000110111110101110,
000110110110000001,
000011100110010001,
000011000011000100,
000000100101010101,
000010111001001011,
000010000000110100,
000001101111101001,
000110001101110001,
000001001101010011,
000011000101010000,
000001010100001001,
000100100000101101,
000000011101010101,
000110100010101011,
000110111100101001,
000111001000100001,
000011000111110101,
000000111011110110,
000110000010111011,
000011101001001110,
000000100011010110,
000011001110010100,
000010101110101000,
000101010011100111,
000010100011111110,
000111110100001101,
000000000000000000,
000110010001001101,
000000000000000000,
000000010000000100,
000000000000000000,
000000101111101000,
000000000000000000,
001011100100111001,
000011000110011111,
000011111110111000,
000000000000000000,
000010000111000100,
000011010100100011,
000010000001000101,
000011000101101111,
000110010100001111,
000000000000000000,
000000000000000000,
000000000000000000,
000101100100001010,
000000000000000000,
000101000111101000,
000101000110111000,
000000011111100111,
000010000011100111,
000000000000000000,
000011011110110101,
000010010100001011,
000010101111011000,
000010101011000101,
000000000110101011,
000001001010011010,
000001001111111011,
000001111100010101,
000001010001000010,
001000010011010111,
000111110100001010,
000111100010010101,
000111111011001100,
000000000000000000,
000110100111101010,
000001100110000110,
000010111011100110,
000010101110100001,
000001111110011111,
000011000101001110,
000000011100011111,
000101000110000000,
000001000001011010,
000110110000100101,
000000111100100101,
000010011101000110,
000111000100111111,
000000010001010011,
000000101011101100,
001000001011010111,
000110110001010111,
000011010100000101,
000000000000000000,
000011111101000001,
000011111101001001,
000001100011011100,
000010110111101011,
000101100111100111,
000000000000000000,
000101001000010010,
000000000000000000,
000000110001010100,
000000000000000000,
000010001011010100,
000000000000000000,
001010111110111101,
000000000000000000,
000001010110010110,
000000000000000000,
000001011101110100,
000010100111111100,
000001110011101010,
000011100100100011,
000010111011011100,
000000000101011111,
000001000111100111,
000000010000010111;
