memory_initialization_radix=2;
memory_initialization_vector=
1110101010010101111111100100010111111000001011111111000111010100000001001110110100000010100100111111100100010001000001101111010100000111001101011111011010110010,
0000011000000001000001111010111011111100001000101111010110111111000010001001111011110111011101011110111001100111111100110000001011110110001100101110110100101110,
1111010100101001000001001010111111111010011100111111011001101100000010011010101111110011111101001111110100111111111100011100001000001000011010010000100110000101,
1110111001111000000010110001000111110100010111011111010110101101000001110001100000001000010011111111011000000110111101111000111100000101011001000000001000111011,
1111001111010111111101000001101111110101000100100000011100001000111100101000010100000111001100100000001000011010111101001110100100000110000100010000010111100101,
0000100010001010000000110110011111110011101101011110011011101001000001101001011111111010101001101111110000101001000010111000101011110011100111111111010001001110,
1111001010000100000010001101000000001010000101100000100001010111111101101010111111111000111001101111001101001001000010001010011000000101110000111111001110101100,
1110110111100000111111101111011000000101010100100000010101001000000001100000100011101110101101011111010101100010000001100101110100000000110010100000010110010000,
0000010100011111000000111110100100000110010011111111000110001101000001111011001111110100001001000000010011100010000001011010100111101101010001101111000001101101,
0000100011100000111011110010100011111101000010001111010010000010000010101000000100000010101010010000101100111100000000001000100111110110110101011111010101111000,
0000011000000000000010101011011111111010011101101111001100100110000001011011010111111101001111000000110100110111111011001100011011111010101010111111000011000010,
1111101000110110111011111110110111110000000100011111000010101110111111100111111111111100000001010000101011100100111100111110101000000010011101111111111110010010,
0000010110100111111011001000100111110011101011101111110011110100000010011011101100001011000100110000101110000100111100010011100011101111100111010000000000111100,
1110111000110001000000110011101111110000111010111111011011011011000000110100010000000011110101001111100111010110111010000001101111111011001111000000001111000000,
1111110011111010000010111101110100000010000110111111100111001111111100110000110100001001100011111111011100011111000010010010100011111111000100111110111111111101,
0000100111111100000010010001000100001001000111111111101010010111111111111111110111111100101001010000100000010011111111000011101000000101010011100000001011100110,
0000011111100000111101101011100000001000011111111111001110100100000010001100000111110010011010110000011100000101111100010010010000000010010101001111100111100110,
0000010110111101111100000000111100000101101101011111000111010010000000111110011111111011001100000000001111111110111111100001101011111110000011101110111111001110,
1111110110011001111111010010110111111100011000011111100001111110111101100110110100001101110010110001000000111100111100111000111111111011111001101111001001001110,
1111010011101001000001110011101011111101101100011111011111010001111110001101100111110110000001101110100000010101000010000000001111111111101101011111111000011110,
1111010111011111111100001001111100000111111000010000011101100001111111010010011111110100000001101111000100110100000000010011011100000110101110000000101010101110,
1111100101110011111111111011101000000000101110100000101010100010111101001111100011111100011111100000100010011001111101111111011000001000010011110000000000010100,
1111001111011101000010111010010011111110000100001110101010110110000011000100011111110011110110010000000011000101111100001010001011101101001110001111011100001011,
1111010101111010111010111111100111110001001100010000010101010101000000111110000000000101001111001111010110111000111011111111100000000101010011010000011000100111,
1111011100001111000011110100110111111011100001001111101100011010111100111111100000001101111001000000010110000101111101011100111111111100110101001111111010110110,
0000011011100100000001100111011111110010010000101111010101011111111101100001001000000010111000111111110101010110000010001110101111110110111110010000001011110011,
1111010001100011000010001111100100001000101010101111101011101001111101000011111111101110011101101110110010101110000010010001101011111000100101000000011010110010,
1111110010011101000010011000001100001010101010000000101110000001111100110001101111111101101101111111011001110100000010001111111111111010101111101111000001010111,
1111110011011001111110110001001100000011101111110000100100101100000001101000111100000010100011001111100100111100111111101111101000000010100010101111100000000111,
1111000100110001000010011100100011110111011110010000111001100111111100110011010111111000001100111111001010000101111101000111001100000101101100101111110000000010,
0000000100000100111111011011111111110000001110001111000111101110111110110011100100001111000111000001000101101001111010010100000011111000010011001111111101110101,
1111000100110111000000111011011000000110000010100000010111101000111101010000010011111001100101011111111101010011000001001111010100000101100100111111011100100100,
0000010000010101000001010011010100000101010100011111011011011000000001000111001011110101110111110000010001101000111100100111010100000000000011011111110100010101,
1110010101000011000010101010011111111010011111000000111111110101111100100101111000000101010111111111101000000011111110101001000100001110110010011111010111011001,
1111000110101010111110000100111011111110100001101111010011100000111111100101000011111011100001001111100100111000000010111011110000000010110110111110111011000010,
0000110001000110111011110000011000000100011011111111111110010100111111110001111011111010111101001111010000111001000010001100011100000000111001100000110111111111,
1111100001011100000011001000101000001101100011111111101101000101111110100101100011110100010000000000101000101000111110100000000011111001101101001111100010110011,
0000011011100000111111100010111000000111110010000000011000011101111100011001100100000110111011011111100100111011111110100001010111101101010111001111100100000000,
0000010111010110111110011101001000000100000010000000000000011111111011110101000111101110111100101111100001001100111101100100001000000100110100111111010011110100,
0000111100011000111010111111001100000000000001111111100011010100111111011101010000000111000010010000000000011000111111001001011011110101011010100000000000111111,
0000011111001101111010100101010011110101111010101111111000111001000010001110111000000001100100001110111010000001111101110100011000000100111010100000101001100111,
0000010001110100111011110111010111111000110110010000001100011111111010011100010100000011101101100000001000101101111010011000100000000011111101001111101110100111,
0000110011101000000010101000111111101111001011001111001000110101111101001101011011110011111011000000101101010001111101110110001100000010100001111111010000100100,
1110101011001110111101101100010011110011001111101111011001100010000001101110100000000101111011000000011001100000111110110011111111111101111111000000011000011000,
0000011101010010111111000010001000001000101011011111111110000000111100110100010100000010110001001111100101110111000001100000000111101111011010110000010110100101,
0000000110100110111110011100010000000000001011000000010111100100111111111101001000001010010011001111111010110000000001110111010111111100100111100000001010001111,
0000100100101100111100011011000111111010111100000000100000011000111010100110110100001001001110110000100111110000111010010100100000001001101110001111111011001011,
1111010011100111111101100000110100000100000000001111010111001111000010110010011011111101101011110000000110001110111101011011001011110100100101001110111111010011,
0000000010011011000010101010000111110001110101001111101100111110000010101010111011101110001000000000101011100010000000001001100111111101111011011111100000100111,
0000011010000011111100010000100111101000010001101111101010111000111101011001111100000111001001010000100111001001000001001111110111110010111101001111010110000001,
0000100100010100111111010110001011111000111000001111010111000111111110010100101100001000111010100000101011111111111101101111010000001010010110011111100101010111,
0000101011110100000001101101110111110110110001001111100100110001111110111100111011111010101100001111001001101000111100101100101100001010110001010000100001110010,
1111010110100000111110110001010000001000111010101111111001100001111100110110111100000101101001010000001101111101111110111110010000001001001100111111001111011011,
0000100010100101000000010000100000000001111001000000011010110101111100110000011100000101101110001110101000101110000001010111110011111010010100110000010100111011,
1111111010101101111111011100000100001001001110110000100001001011000010001001000011111000001011111110100010001011000010010010011000000011111011010000100100011011,
0000001111001010111101010100111000000101111001000000010100011010111011111101101000000101000101010000001111011010111100111010110100000110111101101111011011001111,
0000011010001101000000001010110011111000010000100000100011001001111011010011011000000100010000101111100000000110000001000111001011110000101000101111110101110000,
0000100001110000000000110111010000001001100010011111010100011100111100011000010100000111011000001111101110100001111101011001010100001010010011001111001110111001,
1111111000110010111101111010001111101110101000101111100110111000000000110101110100001001010001011111001000000111000010101010010000000101111100100000101010100101,
1111010101100100000010111010100011110001100101110000100111010001111111001000001111101100001000111111001111001000000010011101111111110011001010010000001111000100,
1110111101111000000010100001001111111001111110000000101001010110111111100111001100001010001001111110101101111000000001011111100011110100011110000000011111000000,
1111011011100111111100001001101100000110111001011111101110011010111111101111000111111110100010100000110011100100000001110001010000001010111010111111010100001110,
1110110111101010111101110001010111110100011110011111101101100000111101010000110000000001010000111110100000001100000001110101000000000101010100010000101001110010,
0000000101000100111011011101011100001000100100000000001010111011111101001010010000000001011111100000000110101110000010010010000000001000100110011110111011000100,
1110101111010111111110010001111111110111101101110000010101000010000001010110011011111001010100101110110101100110000001010001000111101101100111010000010100000110,
1111101010001011111010001010101100001001011011101111010101111111000010010110100011111000010110101111111010111010111001101101101000000011000110100000101110011110,
1111101000000001111110110111010011111010001010110000110110110010111100000101100000001100111010011111000000001110000000100010001011111011011110011111011000001011,
0000011010110101000010110100101100001010000101111111000001000010111110110011101011110101001100111111010011110110111110100001001011110110100000001111110011010111,
1110110101101010111011101010100011111010011010000000011001001000111011001000001111111100111001110000001101110111111010001101101100000011100100101111001100001101,
1110100100101000000000110111011111110010001011110000010111101010111101111100101000000101010001000000010000111001111101001101001111110000100110110000100000110111,
0000010011001100000001101111111111110111111100101111010001001101000001010011011011101110101001011111001110110111111111001010101000000011111100000000011101000001,
1110101100111110000001100111000111110011100010110000100011100000000001111111011000001000101000101110011011110100000010010101101100000101010101010000100100101101,
0000011000111101111011111111001011110100001000001111010001111101000001010010100100000010111010001111000011000010000000011100111011111010000100010000010101100011,
1111010100011110111111011011100111111100011010011111100101000000000001010110011100000111001101000000001011010100111111110101000111111101011001100000011011011011,
1111001110011001111101011101010000001010001011111111111011011100000001100100100011111101010001000000011100010011111111010001000011111011111000011111111100011100,
0000011101011001111011111010100000000101001010101111100111010010111111010110011011111011000101110000010100100100000001110010101111110011110110100000011001111111,
1111011101010111000010000011011111111101101111010000000001010000000010000011111111101110101000010000010001000011000010001000000100000101101011100000011111110010,
1111100001111101111011111011001011111001100111000000010001001101111111101001110000001000010111101111110100001000000010000000101100001001110000000000100101011001,
1111101011010100000000110011100100001111000101011111101011011101111111111011101111111011011110011110111011000110000000011011111011110000100010011111111100110011,
1111011011000000111010111010011011111110101011001111000100100011000000011110010000000101010111110000010110101101000001110011000011111010011101111110110101110110,
0000110100101001000011001101101111111010011010001111000110010000000010101000000011110110001000100000000111001100111110001100101100001011110010111111101100110001,
1111000111000110000001011011100100001000010101010000100001111001111110011000011011111100010100011111011001000011000010001000001111110000100111111111000100101001,
1111011101111000000000100000100111111111100110101110100111111010000000010001000011110101100110100000000101010010111100100101101100000000000110111111010011011001,
1111101010111111000010010101000000000000101111001111011000000001111110111011101011111010000001010000100110011011000001011110100111111100101111110000100111000001;
